e8
f7
d0
b4
c6
d0
05
07
f2
19
0d
14
14
10
fd
05
12
10
ef
09
08
f3
c8
cf
ef
2a
ee
ed
12
ed
20
ff
0a
f2
04
f1
19
14
dd
11
fc
07
06
f4
07
14
b5
02
0a
16
09
de
03
06
db
01
10
04
21
0a
10
11
11
ff
28
f4
f5
cf
f2
18
04
f7
fe
fe
11
f9
f0
00
fa
fd
ff
01
fa
0e
f1
ff
f7
f7
06
0d
ff
f3
02
ff
f8
12
fb
fd
ea
f0
d9
d9
f9
0b
24
f7
e6
00
16
15
1a
01
21
fd
0e
fa
0b
fb
0e
e2
df
ce
cd
fb
f8
f3
1c
ee
d8
fd
14
fd
ee
ee
02
0d
fb
26
09
ff
fd
f9
07
06
1d
f5
09
24
fc
f9
e7
f7
e4
09
e9
0f
19
d4
22
e5
08
90
11
2f
eb
f4
0e
ec
0d
0e
1f
e9
14
e0
14
1b
1c
b2
11
28
fe
df
f0
20
2a
16
03
c1
f3
0e
d0
cc
e8
fe
0e
13
02
f0
2d
03
da
07
dd
16
fe
08
ed
f6
f5
06
1d
19
08
eb
19
25
10
e8
ef
e7
b3
05
0e
03
de
0d
1f
0b
fd
03
0e
e1
03
cb
cf
e1
0e
dd
f2
ef
ed
f7
10
e7
02
f4
0a
f9
e7
15
f9
1f
d5
0b
f8
f5
06
d8
04
04
fd
ea
14
fe
ec
27
12
1d
1b
02
f4
fa
ed
e2
f8
0a
fb
f7
07
fa
0a
06
f4
07
f3
eb
03
fa
21
f6
fd
f8
f9
dc
fb
1f
21
26
09
f5
06
22
3d
f6
e2
d5
19
1a
fe
0d
05
09
11
19
f8
d5
fe
10
00
f9
07
f5
06
f3
f5
08
0a
1b
09
18
00
ed
b9
e7
0e
d8
0b
f7
0c
06
f1
07
f9
dc
fe
ee
25
ef
14
14
1c
dd
09
ea
f8
03
10
19
e5
22
f6
10
08
cf
f0
f7
fd
f2
e3
0e
d6
da
fe
08
03
0f
12
cd
f9
00
00
08
03
ea
0a
0c
22
ff
fe
28
f5
f6
01
06
0e
11
00
e9
df
19
07
ff
02
fa
1a
0f
f3
04
25
ef
f6
fb
1e
14
fc
14
22
f3
d2
0c
2b
13
2c
fd
03
10
00
15
a5
0d
d6
3a
20
0a
f3
e9
06
fe
45
e7
ef
f4
f0
e2
f8
0b
26
c5
e5
d5
1b
17
02
fc
1c
18
03
f2
ea
f9
f0
0e
f8
03
02
fe
18
f5
06
0c
fc
0f
c8
e2
10
0e
e7
07
0d
24
03
04
fa
e7
ea
ce
f7
04
16
ed
15
ec
03
0e
04
ee
ff
cb
9b
02
d3
fb
01
15
fb
0d
ff
f4
f1
2a
14
10
06
f8
01
f7
02
0e
00
1d
19
fa
f1
14
fa
28
14
19
f9
d4
03
e9
fa
10
12
06
ec
fc
0e
fa
09
0b
0a
01
15
f4
23
17
03
12
f5
f9
f3
06
e9
0f
ee
b3
08
34
24
14
22
f8
30
1d
fb
2d
17
08
15
26
ec
e8
d3
f1
1e
f4
f0
e8
0c
f6
f0
13
fa
f7
06
16
11
10
f8
21
e5
e8
08
1f
fb
fd
fd
dd
0b
1f
ff
03
04
f3
13
06
ff
00
e4
13
19
fd
0f
dd
06
fd
e5
fb
0a
f3
04
f2
fd
fd
02
03
09
f8
0c
f5
f6
12
db
f3
f6
05
17
13
b6
bd
16
df
1e
f2
db
15
2c
11
f9
e2
13
0e
f3
11
10
a1
f3
18
ec
12
02
10
10
d6
f6
02
13
08
ab
0e
f6
22
9f
04
f5
13
09
ec
0e
e1
09
11
14
fd
07
f5
17
0f
ff
02
15
cf
e9
1f
10
1a
f9
0b
ef
04
08
00
fc
14
bc
f6
f0
15
e2
00
01
f1
20
e7
09
fd
2e
eb
1f
19
fe
12
17
c7
02
0b
f2
0e
f4
14
f5
fe
00
fc
ce
e8
0a
f6
0a
06
00
0f
2b
14
02
f2
1a
fb
01
fb
01
0f
11
07
29
dd
cb
f1
2e
11
ff
a3
e0
19
f1
fc
ce
dd
04
fd
fc
e7
cb
f4
ee
15
0d
07
05
e9
2b
00
0c
19
ec
19
01
fe
f9
ff
0f
fe
ff
d0
fc
fa
0d
15
de
ff
41
33
1f
17
ea
da
f6
f0
e4
ed
00
0c
17
08
13
ca
ec
01
0f
ef
14
1a
db
fa
0d
1e
ee
0e
eb
ff
0a
19
dc
fb
09
fd
f4
e6
08
07
15
e8
e7
ea
f1
f3
10
12
12
1b
10
c8
0f
09
d1
0a
08
2c
f2
f6
19
11
f3
13
21
05
13
16
14
ea
de
19
00
ef
ec
fc
da
be
0a
05
f8
0b
85
fb
01
16
07
1e
e9
e4
ec
0a
09
e6
c6
f3
16
e2
fa
f9
f2
de
f3
08
d9
1b
05
e8
05
10
f8
de
03
0a
eb
11
11
fb
ef
f5
11
d5
06
04
01
15
03
d8
00
e7
11
fc
15
12
e5
eb
0e
15
1b
0b
11
06
01
05
e5
fd
11
24
ff
f0
fa
03
17
f8
02
ff
0b
fc
fa
fc
08
02
e6
f8
24
f7
da
ea
fd
2d
ff
16
0f
d1
06
cc
f9
03
0c
09
15
c0
e9
f4
ea
d9
09
16
ff
15
13
f6
fe
27
ed
0b
b2
f7
1a
27
03
08
f6
01
01
f1
0b
b2
25
17
f3
fe
30
f9
ef
e6
02
fe
c5
eb
b9
ec
04
0e
08
16
ee
ed
1e
fb
18
13
06
0f
04
e4
02
a9
e8
2a
13
1f
11
e5
f7
21
d0
fc
0c
c6
08
c1
21
03
f9
15
01
43
17
f7
05
ad
0b
f5
d1
1b
d8
e9
06
bb
ee
e3
28
0e
fc
0b
28
20
f5
05
0f
2d
f4
92
dd
07
f2
03
15
03
f5
16
ee
e4
ff
07
ce
27
cf
04
e6
04
e6
92
0b
03
02
23
06
0d
07
f6
e6
24
eb
03
fa
2d
21
fa
fe
19
ed
03
11
f2
e3
13
08
dc
19
22
0d
17
fb
de
d5
1e
d6
f1
03
d4
fe
10
02
27
16
b9
e2
f1
eb
ce
fe
06
15
f8
01
f9
15
fe
02
00
fa
f2
ec
e3
f0
0f
0a
0c
0a
15
fa
f8
25
d4
fe
e8
f3
f8
ff
f4
0f
04
00
23
26
02
e2
f7
11
02
e8
dc
dc
e5
01
02
cd
0b
e0
fe
0c
0f
d1
08
1f
0d
12
f7
00
04
f4
ed
02
ee
f1
07
16
f3
d7
1a
1d
d4
20
fe
01
10
0f
ec
fd
0a
db
1b
f3
c9
11
e8
0e
0e
02
d2
e3
06
e4
ba
fa
0d
14
14
17
c4
f6
20
38
03
05
2b
ee
f6
f2
4f
40
0d
13
ea
06
ef
0b
11
33
00
2a
0f
f1
0d
06
eb
12
fc
03
0c
02
f3
0f
fd
0b
ea
dd
df
f0
12
13
08
da
05
09
fd
11
cb
e9
1c
06
e4
03
f2
fd
12
f2
05
f7
df
0c
e9
f0
e5
e1
01
06
f4
df
17
08
05
0f
0e
ca
f0
fa
07
fa
04
f4
04
08
03
10
ed
00
13
0e
1d
e2
05
0e
2e
08
0f
04
ec
16
ef
22
e3
f0
27
10
20
ee
06
03
f2
18
dd
0e
d1
24
0c
0a
04
ee
1a
0b
06
16
de
cf
f1
fe
28
0b
06
04
e8
f8
fe
19
14
15
11
f1
cb
25
fd
f5
0f
f1
14
09
08
19
17
19
1a
f1
10
0d
cf
08
05
16
d2
12
1c
bd
0d
f8
0a
fb
11
f0
0e
fd
ef
ff
08
13
00
1b
f4
1c
e4
07
22
fb
d3
f1
ff
01
01
e3
fa
0d
0b
27
15
fe
08
02
0a
fe
b8
f7
08
14
20
0a
03
13
09
e5
d9
da
f0
e8
2d
01
eb
09
d6
06
f9
09
ea
de
d5
e5
0c
0a
e6
0f
f2
02
fd
09
13
18
fa
0c
fb
2b
fa
da
e1
ef
07
29
0b
1c
05
f3
e6
d9
0f
f1
de
bc
f5
fb
f0
f1
eb
03
c1
ed
ea
09
ed
00
06
0e
01
e5
05
f4
0c
00
fe
e9
e9
fe
fd
f3
0e
e7
1d
ff
ee
08
27
11
0a
0f
e9
0a
ec
2e
d8
f4
1b
f1
ff
14
08
13
25
0b
fd
d4
21
04
19
f7
35
da
2a
04
ef
df
f6
06
00
02
09
1b
db
f6
0b
0a
ed
f2
18
12
03
08
0c
0a
1a
22
07
ef
ee
f9
f9
20
00
0b
ea
1d
1a
fc
fd
0f
fd
ef
03
d5
ef
c1
fd
08
f5
09
e5
f9
06
d6
08
0b
0d
01
f1
f3
03
24
f1
09
26
05
02
f8
0d
03
f1
0d
1e
07
05
df
d3
f6
ed
ed
de
f9
ec
06
05
dc
f4
0d
f6
18
02
f7
ee
fd
18
00
fc
05
e6
fd
11
df
ec
e9
05
0c
f4
0e
fd
0c
db
16
e8
06
e3
e5
09
f8
f5
1b
15
00
ec
12
f7
a5
f0
16
f7
e8
22
0e
02
03
fc
cc
15
23
08
d4
19
b0
0b
e3
25
18
f1
e5
09
e6
0b
04
0f
05
0a
13
ed
0a
d4
ac
ec
e6
05
de
ff
e8
0f
05
df
3e
fc
22
fb
03
de
13
e5
fa
f7
f1
27
01
06
0b
1b
ff
ec
0a
1c
bc
f6
d2
c7
13
0a
ea
04
d4
13
ec
02
16
f1
fd
1c
fd
06
21
ff
19
10
01
10
03
26
0a
eb
ed
19
e9
01
f0
11
e6
f6
1b
01
c8
32
06
1f
f1
16
ff
fb
01
b2
d2
10
07
c3
d1
fb
df
e5
12
04
ff
00
1b
0e
05
ba
d3
44
cb
eb
fe
00
e1
03
ff
bc
01
1e
11
29
18
ce
43
f3
fc
31
fb
f5
04
1b
ff
eb
e2
fe
0c
d2
01
f7
d9
e5
28
16
f7
db
1a
e4
06
01
f1
f8
eb
01
26
1d
fa
10
fb
0e
18
e6
f5
c4
1b
32
f0
17
0a
f3
08
01
22
0b
09
c5
fe
fc
0f
0d
0e
00
ed
0f
ed
0c
e0
f9
02
12
25
fc
f7
03
06
04
05
f2
0f
09
eb
0c
e2
f8
f9
de
22
e4
0f
06
16
0e
c6
d3
09
1b
0a
fd
03
f8
23
10
e5
0c
02
17
b0
e1
09
f4
f8
0c
eb
ee
12
13
1b
05
0d
ec
d9
16
f5
ea
0a
1b
ed
ee
01
05
d9
3c
06
19
f1
d1
f4
13
f5
fc
ee
dd
19
fd
23
13
fa
fa
f0
ca
10
fc
08
de
f5
3e
f9
17
11
ea
21
fe
df
0a
16
1a
20
f8
07
05
02
22
ef
01
ec
f4
f4
18
05
e9
0b
e9
fb
10
08
03
fd
14
e8
e7
19
1b
f4
f8
be
f3
0c
09
02
09
ee
08
06
1f
07
fa
26
ed
fd
13
07
1e
f7
81
04
e4
0f
0c
